{
    "version": "1.0",
    "truncation": null,
    "padding": null,
    "added_tokens": [
      {
        "id": 0,
        "content": "<bos>",
        "single_word": false,
        "lstrip": false,
        "rstrip": false,
        "normalized": false,
        "special": true
      },
      {
        "id": 1,
        "content": "<cls>",
        "single_word": false,
        "lstrip": false,
        "rstrip": false,
        "normalized": false,
        "special": true
      },
      {
        "id": 2,
        "content": "<pad>",
        "single_word": false,
        "lstrip": false,
        "rstrip": false,
        "normalized": false,
        "special": true
      },
      {
        "id": 3,
        "content": "<sep>",
        "single_word": false,
        "lstrip": false,
        "rstrip": false,
        "normalized": false,
        "special": true
      },
      {
        "id": 4,
        "content": "<eos>",
        "single_word": false,
        "lstrip": false,
        "rstrip": false,
        "normalized": false,
        "special": true
      },
      {
        "id": 5,
        "content": "<unk>",
        "single_word": false,
        "lstrip": false,
        "rstrip": false,
        "normalized": false,
        "special": true
      },
      {
        "id": 6,
        "content": "<mask>",
        "single_word": false,
        "lstrip": true,
        "rstrip": false,
        "normalized": false,
        "special": true
      }
    ],
    "normalizer": null,
    "pre_tokenizer": {
      "type": "Split",
      "pattern": {
        "Regex": "(<[^>]+>|\\[[^\\]]+]|Br?|Cl?|N|O|S|P|F|I|b|c|n|o|s|p|\\(|\\)|\\.|=|#|-|\\+|\\\\|\\/|:|~|@|\\?|>>?|\\*|\\$|\\%[0-9]{2}|[0-9])"
      },
      "behavior": "Isolated",
      "invert": false
    },
    "post_processor": {
      "type": "TemplateProcessing",
      "single": [
        {
          "SpecialToken": {
            "id": "<bos>",
            "type_id": 0
          }
        },
        {
          "Sequence": {
            "id": "A",
            "type_id": 0
          }
        },
        {
          "SpecialToken": {
            "id": "<eos>",
            "type_id": 0
          }
        }
      ],
      "pair": [
        {
          "Sequence": {
            "id": "A",
            "type_id": 0
          }
        },
        {
          "Sequence": {
            "id": "B",
            "type_id": 1
          }
        }
      ],
      "special_tokens": {
        "<bos>": {
          "id": "<bos>",
          "ids": [
            0
          ],
          "tokens": [
            "<bos>"
          ]
        },
        "<eos>": {
          "id": "<eos>",
          "ids": [
            4
          ],
          "tokens": [
            "<eos>"
          ]
        }
      }
    },
    "decoder": null,
    "model": {
      "type": "WordPiece",
      "unk_token": "<unk>",
      "continuing_subword_prefix": "##",
      "max_input_chars_per_word": 100,
      "vocab": {
        "<bos>": 0,
        "<cls>": 1,
        "<pad>": 2,
        "<sep>": 3,
        "<eos>": 4,
        "<unk>": 5,
        "<mask>": 6,
        "c": 7,
        "C": 8,
        "(": 9,
        ")": 10,
        "O": 11,
        "1": 12,
        "2": 13,
        "=": 14,
        "N": 15,
        ".": 16,
        "n": 17,
        "3": 18,
        "F": 19,
        "Cl": 20,
        ">>": 21,
        "~": 22,
        "-": 23,
        "4": 24,
        "[C@H]": 25,
        "S": 26,
        "[C@@H]": 27,
        "[O-]": 28,
        "Br": 29,
        "#": 30,
        "/": 31,
        "[nH]": 32,
        "[N+]": 33,
        "s": 34,
        "5": 35,
        "o": 36,
        "P": 37,
        "[Na+]": 38,
        "[Si]": 39,
        "I": 40,
        "[Na]": 41,
        "[Pd]": 42,
        "[K+]": 43,
        "[K]": 44,
        "[P]": 45,
        "B": 46,
        "[C@]": 47,
        "[C@@]": 48,
        "[Cl-]": 49,
        "6": 50,
        "[OH-]": 51,
        "\\": 52,
        "[N-]": 53,
        "[Li]": 54,
        "[H]": 55,
        "[2H]": 56,
        "[NH4+]": 57,
        "[c-]": 58,
        "[P-]": 59,
        "[Cs+]": 60,
        "[Li+]": 61,
        "[Cs]": 62,
        "[NaH]": 63,
        "[H-]": 64,
        "[O+]": 65,
        "[BH4-]": 66,
        "[Cu]": 67,
        "7": 68,
        "[Mg]": 69,
        "[Fe+2]": 70,
        "[n+]": 71,
        "[Sn]": 72,
        "[BH-]": 73,
        "[Pd+2]": 74,
        "[CH]": 75,
        "[I-]": 76,
        "[Br-]": 77,
        "[C-]": 78,
        "[Zn]": 79,
        "[B-]": 80,
        "[F-]": 81,
        "[Al]": 82,
        "[P+]": 83,
        "[BH3-]": 84,
        "[Fe]": 85,
        "[C]": 86,
        "[AlH4]": 87,
        "[Ni]": 88,
        "[SiH]": 89,
        "8": 90,
        "[Cu+2]": 91,
        "[Mn]": 92,
        "[AlH]": 93,
        "[nH+]": 94,
        "[AlH4-]": 95,
        "[O-2]": 96,
        "[Cr]": 97,
        "[Mg+2]": 98,
        "[NH3+]": 99,
        "[S@]": 100,
        "[Pt]": 101,
        "[Al+3]": 102,
        "[S@@]": 103,
        "[S-]": 104,
        "[Ti]": 105,
        "[Zn+2]": 106,
        "[PH]": 107,
        "[NH2+]": 108,
        "[Ru]": 109,
        "[Ag+]": 110,
        "[S+]": 111,
        "[I+3]": 112,
        "[NH+]": 113,
        "[Ca+2]": 114,
        "[Ag]": 115,
        "9": 116,
        "[Os]": 117,
        "[Se]": 118,
        "[SiH2]": 119,
        "[Ca]": 120,
        "[Ti+4]": 121,
        "[Ac]": 122,
        "[Cu+]": 123,
        "[S]": 124,
        "[Rh]": 125,
        "[Cl+3]": 126,
        "[cH-]": 127,
        "[Zn+]": 128,
        "[O]": 129,
        "[Cl+]": 130,
        "[SH]": 131,
        "[H+]": 132,
        "[Pd+]": 133,
        "[se]": 134,
        "[PH+]": 135,
        "[I]": 136,
        "[Pt+2]": 137,
        "[C+]": 138,
        "[Mg+]": 139,
        "[Hg]": 140,
        "[W]": 141,
        "[SnH]": 142,
        "[SiH3]": 143,
        "[Fe+3]": 144,
        "[NH]": 145,
        "[Mo]": 146,
        "[CH2+]": 147,
        "%10": 148,
        "[CH2-]": 149,
        "[CH2]": 150,
        "[n-]": 151,
        "[Ce+4]": 152,
        "[NH-]": 153,
        "[Co]": 154,
        "[I+]": 155,
        "[PH2]": 156,
        "[Pt+4]": 157,
        "[Ce]": 158,
        "[B]": 159,
        "[Sn+2]": 160,
        "[Ba+2]": 161,
        "%11": 162,
        "[Fe-3]": 163,
        "[18F]": 164,
        "[SH-]": 165,
        "[Pb+2]": 166,
        "[Os-2]": 167,
        "[Zr+4]": 168,
        "[N]": 169,
        "[Ir]": 170,
        "[Bi]": 171,
        "[Ni+2]": 172,
        "[P@]": 173,
        "[Co+2]": 174,
        "[s+]": 175,
        "[As]": 176,
        "[P+3]": 177,
        "[Hg+2]": 178,
        "[Yb+3]": 179,
        "[CH-]": 180,
        "[Zr+2]": 181,
        "[Mn+2]": 182,
        "[CH+]": 183,
        "[In]": 184,
        "[KH]": 185,
        "[Ce+3]": 186,
        "[Zr]": 187,
        "[AlH2-]": 188,
        "[OH2+]": 189,
        "[Ti+3]": 190,
        "[Rh+2]": 191,
        "[Sb]": 192,
        "[S-2]": 193,
        "%12": 194,
        "[P@@]": 195,
        "[Si@H]": 196,
        "[Mn+4]": 197,
        "p": 198,
        "[Ba]": 199,
        "[NH2-]": 200,
        "[Ge]": 201,
        "[Pb+4]": 202,
        "[Cr+3]": 203,
        "[Au]": 204,
        "[LiH]": 205,
        "[Sc+3]": 206,
        "[o+]": 207,
        "[Rh-3]": 208,
        "%13": 209,
        "[Br]": 210,
        "[Sb-]": 211,
        "[S@+]": 212,
        "[I+2]": 213,
        "[Ar]": 214,
        "[V]": 215,
        "[Cu-]": 216,
        "[Al-]": 217,
        "[Te]": 218,
        "[13c]": 219,
        "[13C]": 220,
        "[Cl]": 221,
        "[PH4+]": 222,
        "[SiH4]": 223,
        "[te]": 224,
        "[CH3-]": 225,
        "[S@@+]": 226,
        "[Rh+3]": 227,
        "[SH+]": 228,
        "[Bi+3]": 229,
        "[Br+2]": 230,
        "[La]": 231,
        "[La+3]": 232,
        "[Pt-2]": 233,
        "[N@@]": 234,
        "[PH3+]": 235,
        "[N@]": 236,
        "[Si+4]": 237,
        "[Sr+2]": 238,
        "[Al+]": 239,
        "[Pb]": 240,
        "[SeH]": 241,
        "[Si-]": 242,
        "[V+5]": 243,
        "[Y+3]": 244,
        "[Re]": 245,
        "[Ru+]": 246,
        "[Sm]": 247,
        "*": 248,
        "[3H]": 249,
        "[NH2]": 250,
        "[Ag-]": 251,
        "[13CH3]": 252,
        "[OH+]": 253,
        "[Ru+3]": 254,
        "[OH]": 255,
        "[Gd+3]": 256,
        "[13CH2]": 257,
        "[In+3]": 258,
        "[Si@@]": 259,
        "[Si@]": 260,
        "[Ti+2]": 261,
        "[Sn+]": 262,
        "[Cl+2]": 263,
        "[AlH-]": 264,
        "[Pd-2]": 265,
        "[SnH3]": 266,
        "[B+3]": 267,
        "[Cu-2]": 268,
        "[Nd+3]": 269,
        "[Pb+3]": 270,
        "[13cH]": 271,
        "[Fe-4]": 272,
        "[Ga]": 273,
        "[Sn+4]": 274,
        "[Hg+]": 275,
        "[11CH3]": 276,
        "[Hf]": 277,
        "[Pr]": 278,
        "[Y]": 279,
        "[S+2]": 280,
        "[Cd]": 281,
        "[Cr+6]": 282,
        "[Zr+3]": 283,
        "[Rh+]": 284,
        "[CH3]": 285,
        "[N-3]": 286,
        "[Hf+2]": 287,
        "[Th]": 288,
        "[Sb+3]": 289,
        "%14": 290,
        "[Cr+2]": 291,
        "[Ru+2]": 292,
        "[Hf+4]": 293,
        "[14C]": 294,
        "[Ta]": 295,
        "[Tl+]": 296,
        "[B+]": 297,
        "[Os+4]": 298,
        "[PdH2]": 299,
        "[Pd-]": 300,
        "[Cd+2]": 301,
        "[Co+3]": 302,
        "[S+4]": 303,
        "[Nb+5]": 304,
        "[123I]": 305,
        "[c+]": 306,
        "[Rb+]": 307,
        "[V+2]": 308,
        "[CH3+]": 309,
        "[Ag+2]": 310,
        "[cH+]": 311,
        "[Mn+3]": 312,
        "[Se-]": 313,
        "[As-]": 314,
        "[Eu+3]": 315,
        "[SH2]": 316,
        "[Sm+3]": 317,
        "[IH+]": 318,
        "%15": 319,
        "[OH3+]": 320,
        "[PH3]": 321,
        "[IH2+]": 322,
        "[SH2+]": 323,
        "[Ir+3]": 324,
        "[AlH3]": 325,
        "[Sc]": 326,
        "[Yb]": 327,
        "[15NH2]": 328,
        "[Lu]": 329,
        "[sH+]": 330,
        "[Gd]": 331,
        "[18F-]": 332,
        "[SH3+]": 333,
        "[SnH4]": 334,
        "[TeH]": 335,
        "[Si@@H]": 336,
        "[Ga+3]": 337,
        "[CaH2]": 338,
        "[Tl]": 339,
        "[Ta+5]": 340,
        "[GeH]": 341,
        "[Br+]": 342,
        "[Sr]": 343,
        "[Tl+3]": 344,
        "[Sm+2]": 345,
        "[PH5]": 346,
        "%16": 347,
        "[N@@+]": 348,
        "[Au+3]": 349,
        "[C-4]": 350,
        "[Nd]": 351,
        "[Ti+]": 352,
        "[IH]": 353,
        "[N@+]": 354,
        "[125I]": 355,
        "[Eu]": 356,
        "[Sn+3]": 357,
        "[Nb]": 358,
        "[Er+3]": 359,
        "[123I-]": 360,
        "[14c]": 361,
        "%17": 362,
        "[SnH2]": 363,
        "[YH]": 364,
        "[Sb+5]": 365,
        "[Pr+3]": 366,
        "[Ir+]": 367,
        "[N+3]": 368,
        "[AlH2]": 369,
        "[19F]": 370,
        "%18": 371,
        "[Tb]": 372,
        "[14CH]": 373,
        "[Mo+4]": 374,
        "[Si+]": 375,
        "[BH]": 376,
        "[Be]": 377,
        "[Rb]": 378,
        "[pH]": 379,
        "%19": 380,
        "%20": 381,
        "[Xe]": 382,
        "[Ir-]": 383,
        "[Be+2]": 384,
        "[C+4]": 385,
        "[RuH2]": 386,
        "[15NH]": 387,
        "[U+2]": 388,
        "[Au-]": 389,
        "%21": 390,
        "%22": 391,
        "[Au+]": 392,
        "[15n]": 393,
        "[Al+2]": 394,
        "[Tb+3]": 395,
        "[15N]": 396,
        "[V+3]": 397,
        "[W+6]": 398,
        "[14CH3]": 399,
        "[Cr+4]": 400,
        "[ClH+]": 401,
        "b": 402,
        "[Ti+6]": 403,
        "[Nd+]": 404,
        "[Zr+]": 405,
        "[PH2+]": 406,
        "[Fm]": 407,
        "[N@H+]": 408,
        "[RuH]": 409,
        "[Dy+3]": 410,
        "%23": 411,
        "[Hf+3]": 412,
        "[W+4]": 413,
        "[11C]": 414,
        "[13CH]": 415,
        "[Er]": 416,
        "[124I]": 417,
        "[LaH]": 418,
        "[F]": 419,
        "[siH]": 420,
        "[Ga+]": 421,
        "[Cm]": 422,
        "[GeH3]": 423,
        "[IH-]": 424,
        "[U+6]": 425,
        "[SeH+]": 426,
        "[32P]": 427,
        "[SeH-]": 428,
        "[Pt-]": 429,
        "[Ir+2]": 430,
        "[se+]": 431,
        "[U]": 432,
        "[F+]": 433,
        "[BH2]": 434,
        "[As+]": 435,
        "[Cf]": 436,
        "[ClH2+]": 437,
        "[Ni+]": 438,
        "[TeH3]": 439,
        "[SbH2]": 440,
        "[Ag+3]": 441,
        "%24": 442,
        "[18O]": 443,
        "[PH4]": 444,
        "[Os+2]": 445,
        "[Na-]": 446,
        "[Sb+2]": 447,
        "[V+4]": 448,
        "[Ho+3]": 449,
        "[68Ga]": 450,
        "[PH-]": 451,
        "[Bi+2]": 452,
        "[Ce+2]": 453,
        "[Pd+3]": 454,
        "[99Tc]": 455,
        "[13C@@H]": 456,
        "[Fe+6]": 457,
        "[c]": 458,
        "[GeH2]": 459,
        "[10B]": 460,
        "[Cu+3]": 461,
        "[Mo+2]": 462,
        "[Cr+]": 463,
        "[Pd+4]": 464,
        "[Dy]": 465,
        "[AsH]": 466,
        "[Ba+]": 467,
        "[SeH2]": 468,
        "[In+]": 469,
        "[TeH2]": 470,
        "[BrH+]": 471,
        "[14cH]": 472,
        "[W+]": 473,
        "[13C@H]": 474,
        "[AsH2]": 475,
        "[In+2]": 476,
        "[N+2]": 477,
        "[N@@H+]": 478,
        "[SbH]": 479,
        "[60Co]": 480,
        "[AsH4+]": 481,
        "[AsH3]": 482,
        "[18OH]": 483,
        "[Ru-2]": 484,
        "[Na-2]": 485,
        "[CuH2]": 486,
        "[31P]": 487,
        "[Ti+5]": 488,
        "[35S]": 489,
        "[P@@H]": 490,
        "[ArH]": 491,
        "[Co+]": 492,
        "[Zr-2]": 493,
        "[BH2-]": 494,
        "[131I]": 495,
        "[SH5]": 496,
        "[VH]": 497,
        "[B+2]": 498,
        "[Yb+2]": 499,
        "[14C@H]": 500,
        "[211At]": 501,
        "[NH3+2]": 502,
        "[IrH]": 503,
        "[IrH2]": 504,
        "[Rh-]": 505,
        "[Cr-]": 506,
        "[Sb+]": 507,
        "[Ni+3]": 508,
        "[TaH3]": 509,
        "[Tl+2]": 510,
        "[64Cu]": 511,
        "[Tc]": 512,
        "[Cd+]": 513,
        "[1H]": 514,
        "[15nH]": 515,
        "[AlH2+]": 516,
        "[FH+2]": 517,
        "[BiH3]": 518,
        "[Ru-]": 519,
        "[Mo+6]": 520,
        "[AsH+]": 521,
        "[BaH2]": 522,
        "[BaH]": 523,
        "[Fe+4]": 524,
        "[229Th]": 525,
        "[Th+4]": 526,
        "[As+3]": 527,
        "[NH+3]": 528,
        "[P@H]": 529,
        "[Li-]": 530,
        "[7NaH]": 531,
        "[Bi+]": 532,
        "[PtH+2]": 533,
        "[p-]": 534,
        "[Re+5]": 535,
        "[NiH]": 536,
        "[Ni-]": 537,
        "[Xe+]": 538,
        "[Ca+]": 539,
        "[11c]": 540,
        "[Rh+4]": 541,
        "[AcH]": 542,
        "[HeH]": 543,
        "[Sc+2]": 544,
        "[Mn+]": 545,
        "[UH]": 546,
        "[14CH2]": 547,
        "[SiH4+]": 548,
        "[18OH2]": 549,
        "[Ac-]": 550,
        "[Re+4]": 551,
        "[118Sn]": 552,
        "[153Sm]": 553,
        "[P+2]": 554,
        "[9CH]": 555,
        "[9CH3]": 556,
        "[Y-]": 557,
        "[NiH2]": 558,
        "[Si+2]": 559,
        "[Mn+6]": 560,
        "[ZrH2]": 561,
        "[C-2]": 562,
        "[Bi+5]": 563,
        "[24NaH]": 564,
        "[Fr]": 565,
        "[15CH]": 566,
        "[Se+]": 567,
        "[At]": 568,
        "[P-3]": 569,
        "[124I-]": 570,
        "[CuH2-]": 571,
        "[Nb+4]": 572,
        "[Nb+3]": 573,
        "[MgH]": 574,
        "[Ir+4]": 575,
        "[67Ga+3]": 576,
        "[67Ga]": 577,
        "[13N]": 578,
        "[15OH2]": 579,
        "[2NH]": 580,
        "[Ho]": 581,
        "[Cn]": 582,
        "<absorption0>": 583,
        "<absorption1>": 584,
        "<absorption2>": 585,
        "<absorption3>": 586,
        "<absorption4>": 587,
        "<absorption5>": 588,
        "<absorption6>": 589,
        "<rate0>": 590,
        "<rate1>": 591,
        "<rate2>": 592,
        "<rate3>": 593,
        "<splitting0>": 594,
        "<splitting1>": 595,
        "<splitting2>": 596,
        "<splitting3>": 597,
        "<splitting4>": 598,
        "<splitting5>": 599,
        "<splitting6>": 600,
        "<strength0>": 601,
        "<strength1>": 602,
        "<strength2>": 603,
        "<strength3>": 604,
        "<strength4>": 605,
        "<strength5>": 606,
        "<strength6>": 607, 
      	"<solvent0>": 608,
      	"<solvent1>": 609,
      	"<solvent2>": 610,
      	"<solvent3>": 611,
      	"<solvent4>": 612,
      	"<solvent5>": 613,
      	"<solvent6>": 614,
      	"<solvent7>": 615,
      	"<solvent8>": 616,
      	"<solvent9>": 617
      }
    }
  }
